unsigned char model_tflite[] = {
  0x1c, 0x00, 0x00, 0x00, 0x54, 0x46, 0x4c, 0x33, 0x00, 0x00, 0x12, 0x00,
  0x1c, 0x00, 0x04, 0x00, 0x08, 0x00, 0x0c, 0x00, 0x10, 0x00, 0x14, 0x00,
  0x00, 0x00, 0x18, 0x00, 0x12, 0x00, 0x00, 0x00, 0x03, 0x00, 0x00, 0x00,
  0x8c, 0x0b, 0x00, 0x00, 0xc8, 0x06, 0x00, 0x00, 0xb0, 0x06, 0x00, 0x00,
  0x34, 0x00, 0x00, 0x00, 0x04, 0x00, 0x00, 0x00, 0x01, 0x00, 0x00, 0x00,
  0x04, 0x00, 0x00, 0x00, 0x14, 0xf5, 0xff, 0xff, 0x08, 0x00, 0x00, 0x00,
  0x0c, 0x00, 0x00, 0x00, 0x13, 0x00, 0x00, 0x00, 0x6d, 0x69, 0x6e, 0x5f,
  0x72, 0x75, 0x6e, 0x74, 0x69, 0x6d, 0x65, 0x5f, 0x76, 0x65, 0x72, 0x73,
  0x69, 0x6f, 0x6e, 0x00, 0x0d, 0x00, 0x00, 0x00, 0x70, 0x06, 0x00, 0x00,
  0xa0, 0x05, 0x00, 0x00, 0x84, 0x05, 0x00, 0x00, 0x34, 0x05, 0x00, 0x00,
  0x24, 0x01, 0x00, 0x00, 0xd4, 0x00, 0x00, 0x00, 0xcc, 0x00, 0x00, 0x00,
  0xc4, 0x00, 0x00, 0x00, 0xbc, 0x00, 0x00, 0x00, 0x2c, 0x00, 0x00, 0x00,
  0x24, 0x00, 0x00, 0x00, 0x1c, 0x00, 0x00, 0x00, 0x04, 0x00, 0x00, 0x00,
  0x46, 0xf9, 0xff, 0xff, 0x04, 0x00, 0x00, 0x00, 0x05, 0x00, 0x00, 0x00,
  0x31, 0x2e, 0x35, 0x2e, 0x30, 0x00, 0x00, 0x00, 0x24, 0xf5, 0xff, 0xff,
  0x28, 0xf5, 0xff, 0xff, 0x62, 0xf9, 0xff, 0xff, 0x04, 0x00, 0x00, 0x00,
  0x80, 0x00, 0x00, 0x00, 0xa1, 0x6c, 0xa6, 0x3e, 0x96, 0x81, 0x65, 0xbe,
  0x34, 0xdd, 0xb1, 0xbe, 0x55, 0x6c, 0xe4, 0xbd, 0xb4, 0x4c, 0x02, 0xbe,
  0xd5, 0x74, 0xa3, 0xbe, 0x9c, 0xa8, 0x9d, 0xbe, 0x8e, 0xf4, 0x5a, 0xbe,
  0x01, 0xd1, 0xa4, 0x3e, 0xd2, 0xdc, 0x03, 0x3f, 0xf8, 0x06, 0x37, 0xbe,
  0x40, 0x8b, 0x93, 0x3e, 0x4b, 0x15, 0xa7, 0x3d, 0x3e, 0x61, 0x91, 0xbf,
  0x2c, 0x9a, 0xaf, 0xbe, 0x70, 0x83, 0x28, 0x3e, 0x1b, 0x64, 0x62, 0xbe,
  0x86, 0x1e, 0x2b, 0xbe, 0x8c, 0xdf, 0xb3, 0x3e, 0xf4, 0xc8, 0x9a, 0x3f,
  0xbe, 0x13, 0x84, 0xbe, 0x9c, 0xa8, 0x08, 0xbe, 0xa5, 0xd9, 0x0d, 0xbf,
  0x50, 0xff, 0xa9, 0x3e, 0x0a, 0xc4, 0xca, 0x3e, 0x60, 0xb7, 0xe5, 0x3e,
  0x26, 0x68, 0x4d, 0x3e, 0xea, 0x60, 0x63, 0xbf, 0xf6, 0x20, 0xca, 0xbe,
  0x11, 0x40, 0xfb, 0xbe, 0x88, 0x1f, 0x04, 0x3f, 0xee, 0x76, 0xc1, 0x3e,
  0xb8, 0xf5, 0xff, 0xff, 0xbc, 0xf5, 0xff, 0xff, 0xc0, 0xf5, 0xff, 0xff,
  0xfa, 0xf9, 0xff, 0xff, 0x04, 0x00, 0x00, 0x00, 0x40, 0x00, 0x00, 0x00,
  0x5c, 0xfc, 0xd5, 0xbf, 0x91, 0xb0, 0x99, 0xbe, 0x00, 0x00, 0x00, 0x00,
  0x00, 0x00, 0x00, 0x00, 0x1a, 0x2a, 0xaa, 0xbf, 0x00, 0x00, 0x00, 0x00,
  0x74, 0xe5, 0xf1, 0x3f, 0x00, 0x00, 0x00, 0x00, 0x62, 0x14, 0xdb, 0x3f,
  0x26, 0x04, 0xae, 0xbf, 0x00, 0x00, 0x00, 0x00, 0x00, 0x00, 0x00, 0x00,
  0xd5, 0xf2, 0xea, 0xbf, 0xb0, 0x40, 0xf4, 0xbe, 0x00, 0x00, 0x00, 0x00,
  0xf7, 0xd9, 0xd6, 0xbf, 0x46, 0xfa, 0xff, 0xff, 0x04, 0x00, 0x00, 0x00,
  0x00, 0x04, 0x00, 0x00, 0xe0, 0x0f, 0x1c, 0xbc, 0xde, 0xf2, 0x84, 0xbe,
  0xe6, 0x4c, 0xbf, 0xbe, 0x88, 0xb9, 0xc2, 0xbe, 0xa6, 0xc5, 0x71, 0x3e,
  0x16, 0x58, 0x33, 0x3e, 0x4e, 0x2b, 0x99, 0xbe, 0xd4, 0x4c, 0x2d, 0xbe,
  0x10, 0x18, 0xd0, 0xbe, 0x44, 0x28, 0xd9, 0xbe, 0x00, 0x5f, 0x01, 0xbe,
  0xfc, 0x86, 0x85, 0xbe, 0xa5, 0x69, 0xc8, 0xbe, 0x66, 0x76, 0x54, 0xbe,
  0xe0, 0x9e, 0x5f, 0x3d, 0xda, 0x02, 0x66, 0x3e, 0x55, 0x8a, 0xdc, 0xbd,
  0xd9, 0x85, 0x14, 0xbe, 0xe1, 0x19, 0x6a, 0xbe, 0xaa, 0x6a, 0x50, 0x3e,
  0xda, 0xf3, 0x45, 0xbd, 0xb4, 0x57, 0x6f, 0xbe, 0x54, 0x52, 0x8b, 0x3e,
  0x28, 0x2c, 0x4f, 0xbd, 0x20, 0x84, 0x0d, 0xbf, 0x5f, 0x65, 0x11, 0xbe,
  0xca, 0xd8, 0x21, 0x3e, 0x40, 0x5a, 0xb1, 0x3b, 0x38, 0x4a, 0x09, 0xbf,
  0xff, 0xea, 0xe6, 0xbe, 0xef, 0xee, 0xa2, 0x3e, 0x11, 0xcc, 0x94, 0xbe,
  0x00, 0x8b, 0xf7, 0x3d, 0x58, 0x2e, 0xa5, 0xbe, 0x7c, 0x06, 0xd8, 0x3d,
  0xd4, 0x46, 0xe3, 0xbd, 0xff, 0xef, 0x11, 0xbf, 0xc0, 0x9a, 0x58, 0xbc,
  0x30, 0x85, 0x30, 0xbe, 0x00, 0x35, 0x89, 0x3b, 0x0e, 0x10, 0x28, 0xbf,
  0x42, 0x75, 0x2c, 0xbf, 0x4a, 0x45, 0x7a, 0xbe, 0xe0, 0xf4, 0x0f, 0xbc,
  0x85, 0x48, 0x87, 0xbb, 0xb6, 0xe7, 0x0e, 0xbe, 0xd5, 0x71, 0xbb, 0x3e,
  0x6b, 0xaf, 0x12, 0xbf, 0x60, 0xf7, 0xb4, 0xbc, 0x6e, 0x80, 0x5f, 0xbe,
  0xee, 0xd5, 0x5e, 0x3e, 0x33, 0x1a, 0x89, 0x3e, 0x0a, 0x73, 0x32, 0xbd,
  0x2c, 0x66, 0x53, 0xbe, 0x55, 0x66, 0xcd, 0x3f, 0xcf, 0x45, 0xb0, 0xbe,
  0xb7, 0x87, 0x9b, 0x3e, 0x80, 0x86, 0x30, 0xbe, 0x89, 0x0c, 0xb4, 0x3e,
  0x30, 0xee, 0xe3, 0xbc, 0x12, 0x0a, 0x5c, 0xbf, 0x73, 0x16, 0xfc, 0xbd,
  0x84, 0xb4, 0x82, 0xbe, 0xca, 0xf8, 0xe5, 0xbe, 0x05, 0xd2, 0xbe, 0xbe,
  0x00, 0x32, 0x16, 0xbb, 0x4c, 0x6f, 0xd9, 0xbd, 0x20, 0x5b, 0xfe, 0x3c,
  0xf7, 0x8e, 0x4d, 0xbf, 0x00, 0xf9, 0x3d, 0x3c, 0x80, 0xde, 0x4c, 0xbf,
  0x90, 0x6a, 0xbd, 0xbe, 0xc7, 0x58, 0x13, 0xbf, 0x2c, 0xe3, 0x77, 0xbe,
  0xe2, 0xbc, 0x2e, 0x3e, 0x7b, 0x9d, 0xb3, 0x3e, 0x6d, 0x82, 0x93, 0xbe,
  0x24, 0x1e, 0xf8, 0xbe, 0xdf, 0xa8, 0xad, 0xbe, 0x63, 0x54, 0xb1, 0xbe,
  0xa0, 0x36, 0x03, 0x3d, 0xc2, 0xb9, 0x09, 0xbe, 0x01, 0xf7, 0x47, 0xbe,
  0x7a, 0x2b, 0x4b, 0x3e, 0x92, 0xe6, 0xc8, 0xbe, 0xb3, 0xf7, 0x87, 0x3e,
  0xef, 0xbb, 0xdb, 0xbe, 0xe9, 0xd0, 0x9b, 0x3e, 0xe6, 0x13, 0xc4, 0xbe,
  0xa7, 0x57, 0x81, 0x3e, 0xbd, 0x4d, 0xdc, 0x3e, 0x04, 0x95, 0xef, 0x3d,
  0xa7, 0x3c, 0x77, 0xbe, 0x28, 0x56, 0xb5, 0xbe, 0x5b, 0x89, 0x56, 0xbe,
  0x4b, 0x81, 0x73, 0xbe, 0x86, 0x0a, 0xdb, 0xbe, 0xdd, 0xff, 0x56, 0xbe,
  0xb5, 0x45, 0xd0, 0x3e, 0xd4, 0xb9, 0x1b, 0xbe, 0xb8, 0x79, 0x20, 0xbe,
  0xed, 0x59, 0xa2, 0xbe, 0x9f, 0xa3, 0x0d, 0xbd, 0x3c, 0x65, 0x9f, 0x3d,
  0x26, 0xbd, 0x08, 0xbf, 0xfb, 0x18, 0x05, 0xbf, 0xb6, 0x89, 0x7a, 0x3e,
  0x54, 0x5e, 0xa4, 0xbd, 0x5c, 0x4c, 0xfa, 0xbe, 0xe9, 0x24, 0x32, 0xbf,
  0xfa, 0x52, 0xb3, 0xbe, 0x45, 0x97, 0xf5, 0xbe, 0xc4, 0xe0, 0x83, 0xbe,
  0x8b, 0x62, 0xc9, 0x3e, 0xf8, 0x8c, 0x80, 0xbd, 0x17, 0xca, 0xdb, 0x3e,
  0x6d, 0x98, 0x55, 0xbe, 0x48, 0x15, 0xa5, 0xbe, 0xcd, 0x12, 0x87, 0x3f,
  0x38, 0x13, 0x58, 0x3d, 0xec, 0x4a, 0x31, 0x3f, 0xf9, 0xd5, 0xc2, 0xbe,
  0xa1, 0x14, 0xc3, 0x3e, 0x5f, 0x4c, 0xa5, 0x3e, 0x2a, 0xe8, 0xf1, 0xbe,
  0x19, 0xb3, 0x99, 0x3e, 0x38, 0x4b, 0xdd, 0xbd, 0x35, 0xc3, 0x92, 0xbe,
  0x00, 0x4a, 0x8d, 0x3d, 0xfd, 0x72, 0x14, 0xbc, 0x60, 0x31, 0x28, 0x3d,
  0x31, 0x50, 0xca, 0x3e, 0x6e, 0xb8, 0x3b, 0xbd, 0x4f, 0x8c, 0xa6, 0x3e,
  0x96, 0xc0, 0xfd, 0x3d, 0x1a, 0xcd, 0x73, 0x3e, 0x17, 0x3f, 0x04, 0xbe,
  0xab, 0x62, 0x34, 0xbe, 0xcd, 0xee, 0x5b, 0xbe, 0x00, 0x3d, 0xe4, 0x3b,
  0xf5, 0xa5, 0x1f, 0xbf, 0xea, 0xc6, 0xfe, 0xbe, 0xe0, 0xb4, 0xe0, 0x3c,
  0x65, 0x34, 0x17, 0xbf, 0x80, 0xb2, 0x58, 0xbe, 0x1a, 0x26, 0x6d, 0xbe,
  0x74, 0x45, 0x1f, 0xbe, 0xb0, 0xf6, 0x9c, 0xbc, 0x57, 0xc8, 0x26, 0xbe,
  0x0e, 0xea, 0x6a, 0x3e, 0x2f, 0x71, 0x51, 0x3f, 0xac, 0xfb, 0xc7, 0x3d,
  0x1f, 0x15, 0x16, 0xbf, 0xc2, 0x6c, 0x09, 0xbf, 0xa2, 0xd6, 0x5b, 0xbe,
  0xc0, 0xdf, 0x60, 0x3c, 0x63, 0xcd, 0x8a, 0xbe, 0x48, 0x75, 0xa1, 0xbe,
  0xe0, 0x45, 0x31, 0xbc, 0x94, 0x74, 0xb7, 0x3d, 0xc3, 0xf7, 0xca, 0xbe,
  0x8e, 0x86, 0x40, 0x3e, 0x45, 0xb3, 0x8a, 0x3e, 0x14, 0x37, 0x81, 0x3d,
  0x7f, 0x26, 0xb3, 0xbe, 0xd7, 0x6d, 0xcd, 0xbe, 0x57, 0xbf, 0x0b, 0xbd,
  0xd2, 0x94, 0x0f, 0x3e, 0x88, 0xe5, 0x25, 0x3c, 0x07, 0xa0, 0x3d, 0xbf,
  0x04, 0x0f, 0xb2, 0xbe, 0x8c, 0x13, 0xfe, 0x3d, 0xe0, 0x84, 0xa4, 0xbe,
  0xb3, 0xab, 0x4f, 0xbe, 0x93, 0x26, 0x88, 0x3e, 0xeb, 0x23, 0x33, 0xbf,
  0xdf, 0x53, 0x03, 0x3f, 0xf3, 0xf6, 0x16, 0x3e, 0xfc, 0x32, 0xd5, 0x3d,
  0xc5, 0xa9, 0xc0, 0x3e, 0x12, 0x0a, 0x5e, 0x3f, 0xf3, 0x40, 0xbf, 0x3e,
  0x9c, 0xe4, 0xbb, 0xbd, 0x79, 0x38, 0x7f, 0xbe, 0x6f, 0xb8, 0x03, 0x3f,
  0x69, 0x40, 0xb2, 0x3f, 0x09, 0xa5, 0xd0, 0xbe, 0x5b, 0x00, 0xc3, 0x3e,
  0xe7, 0x07, 0xe8, 0x3e, 0x5b, 0x16, 0x1f, 0x3f, 0x30, 0x1f, 0xf4, 0x3c,
  0x0a, 0x6e, 0x59, 0x3f, 0x0b, 0x54, 0x63, 0xbc, 0x8d, 0x04, 0x84, 0x3e,
  0xe5, 0x03, 0x6e, 0xbe, 0x14, 0x6b, 0x80, 0x3d, 0x6f, 0x14, 0xcf, 0xbe,
  0xcb, 0xb6, 0x8e, 0x3e, 0x6a, 0xef, 0x6b, 0x3c, 0x17, 0xd2, 0xdc, 0x3e,
  0x78, 0x71, 0x96, 0x3d, 0xe6, 0xc9, 0x9e, 0x3e, 0x30, 0xfb, 0xcf, 0xbe,
  0x79, 0xc1, 0xd4, 0x3e, 0x54, 0xaa, 0xd8, 0xbd, 0x85, 0xc9, 0xa4, 0xbe,
  0xa0, 0x30, 0x4a, 0xbc, 0xcb, 0x57, 0xc2, 0xbe, 0xb4, 0x4d, 0x22, 0xbe,
  0x9c, 0x3a, 0xc6, 0x3d, 0xea, 0xc4, 0x0c, 0x3e, 0x08, 0x05, 0x59, 0xbd,
  0x39, 0x0f, 0xa9, 0x3e, 0xe1, 0xa9, 0xc3, 0x3e, 0x26, 0x21, 0x0d, 0xbe,
  0xf9, 0xe4, 0x3e, 0xbe, 0x4a, 0x93, 0xdc, 0xbe, 0x3c, 0xff, 0xf7, 0xbd,
  0x4c, 0x83, 0x32, 0xbe, 0x2e, 0xee, 0x47, 0x3e, 0x90, 0x68, 0x7e, 0x3d,
  0xdd, 0x0c, 0xb1, 0x3e, 0xf9, 0x65, 0x3d, 0xbe, 0x50, 0x54, 0x91, 0xbe,
  0xcf, 0xb5, 0x6c, 0xbf, 0xdf, 0x0f, 0xb5, 0xbe, 0x20, 0x03, 0x3d, 0xbd,
  0x54, 0xb1, 0xad, 0x3d, 0x93, 0x74, 0xb6, 0xbe, 0x34, 0xd7, 0xd9, 0x3d,
  0xb2, 0x9f, 0x62, 0xbf, 0x06, 0x3a, 0x78, 0x3e, 0x12, 0x17, 0x0e, 0xbf,
  0x5f, 0x50, 0x1a, 0xbf, 0x70, 0xdf, 0x2d, 0x3d, 0xca, 0xab, 0x65, 0x3e,
  0x37, 0xfc, 0x80, 0xbf, 0x15, 0x4b, 0xe4, 0xbe, 0x6b, 0x95, 0x8a, 0x3e,
  0x57, 0x00, 0x1e, 0xbf, 0xa7, 0x60, 0x37, 0x3f, 0xf1, 0xa9, 0x30, 0x3f,
  0x0a, 0xbd, 0x46, 0x3e, 0x74, 0x25, 0xbe, 0x3d, 0x97, 0x8f, 0x6c, 0x3f,
  0xdc, 0x76, 0xd5, 0x3d, 0xa0, 0x3a, 0xac, 0xbf, 0xc2, 0xa3, 0xd9, 0xbe,
  0x7b, 0xb9, 0x8d, 0x3e, 0x4e, 0x9f, 0x8d, 0x3f, 0x54, 0x6f, 0xe4, 0x3d,
  0x9a, 0xa3, 0xa7, 0xbe, 0x7f, 0x79, 0x26, 0x3f, 0x3c, 0xbe, 0x1f, 0x3e,
  0x56, 0xa6, 0x15, 0x3e, 0x7f, 0x18, 0x48, 0x3f, 0x52, 0xfe, 0xff, 0xff,
  0x04, 0x00, 0x00, 0x00, 0x40, 0x00, 0x00, 0x00, 0x00, 0x00, 0x00, 0x00,
  0x2b, 0xb4, 0x99, 0xbe, 0xf9, 0xb8, 0x99, 0xbe, 0x34, 0x75, 0xeb, 0x3f,
  0xfc, 0x15, 0xd7, 0xbe, 0x00, 0x00, 0x00, 0x00, 0x25, 0x26, 0xe2, 0xbe,
  0xcc, 0x89, 0xd5, 0x3f, 0x56, 0x42, 0x38, 0xbf, 0x3c, 0x51, 0xfa, 0x3d,
  0xea, 0xba, 0xb4, 0xbe, 0x2b, 0x34, 0xb0, 0xbe, 0x89, 0x59, 0xe2, 0xbe,
  0x00, 0x00, 0x00, 0x00, 0xd4, 0x55, 0x1f, 0xbf, 0x20, 0x18, 0xab, 0xbf,
  0x9e, 0xfe, 0xff, 0xff, 0x04, 0x00, 0x00, 0x00, 0x0c, 0x00, 0x00, 0x00,
  0xed, 0x1c, 0x90, 0x3f, 0x34, 0x0f, 0x43, 0x3f, 0x64, 0x4c, 0xe4, 0xbf,
  0xb6, 0xfe, 0xff, 0xff, 0x04, 0x00, 0x00, 0x00, 0xc0, 0x00, 0x00, 0x00,
  0x63, 0x6b, 0x0f, 0xbf, 0x63, 0xe1, 0xbd, 0xbe, 0xfe, 0xcd, 0x8b, 0x3e,
  0x8e, 0x8e, 0x65, 0x3f, 0xa0, 0x79, 0x15, 0x3e, 0xe0, 0x5d, 0xcf, 0xbc,
  0x26, 0x91, 0xd1, 0x3e, 0x70, 0x2b, 0x77, 0x3f, 0xb8, 0x4f, 0x2e, 0xbe,
  0x36, 0x0d, 0xa0, 0x3e, 0xa1, 0x8c, 0x4c, 0x3e, 0x6f, 0xc8, 0x5d, 0xc0,
  0x15, 0x2b, 0xa8, 0xbe, 0x80, 0xbc, 0xd3, 0xbd, 0x8a, 0xca, 0xb5, 0xbe,
  0xdc, 0xf9, 0xaa, 0xbf, 0x56, 0xa9, 0xc0, 0xbe, 0x19, 0x4f, 0xee, 0x3d,
  0x2b, 0xaf, 0x74, 0x3e, 0xa5, 0x02, 0xd4, 0x3e, 0x51, 0x98, 0x95, 0x3d,
  0x35, 0xa3, 0x87, 0xbe, 0x92, 0xcf, 0x44, 0x3d, 0x68, 0x14, 0x75, 0x3e,
  0x78, 0xa8, 0x28, 0x3f, 0x95, 0x80, 0xbd, 0xbc, 0xa2, 0x0d, 0x21, 0xbf,
  0x5f, 0x95, 0xb5, 0x3e, 0x18, 0x28, 0xad, 0x3e, 0x60, 0x5b, 0x73, 0x3e,
  0x06, 0x82, 0xed, 0xbe, 0x1a, 0xa8, 0xdd, 0x3d, 0x82, 0xb0, 0xa7, 0xbe,
  0xb5, 0x61, 0x3e, 0xbc, 0x3d, 0xca, 0xd2, 0xbe, 0xec, 0x1c, 0x2f, 0xbf,
  0x6d, 0x3e, 0x41, 0x3f, 0x9c, 0x6d, 0xaf, 0xbd, 0x3c, 0x6d, 0xed, 0xbe,
  0x7c, 0xb5, 0x9a, 0xbf, 0xa5, 0xa1, 0xb4, 0xbd, 0x02, 0x94, 0x9b, 0xbd,
  0x14, 0xa0, 0x1e, 0x3e, 0x27, 0x81, 0x04, 0x3f, 0x1f, 0x13, 0x69, 0x3e,
  0xcc, 0x6b, 0x81, 0x3e, 0x22, 0x4f, 0x0c, 0x3f, 0x10, 0x00, 0x60, 0x3f,
  0x4c, 0xfb, 0xff, 0xff, 0x0f, 0x00, 0x00, 0x00, 0x54, 0x4f, 0x43, 0x4f,
  0x20, 0x43, 0x6f, 0x6e, 0x76, 0x65, 0x72, 0x74, 0x65, 0x64, 0x2e, 0x00,
  0x01, 0x00, 0x00, 0x00, 0x10, 0x00, 0x00, 0x00, 0x0c, 0x00, 0x14, 0x00,
  0x04, 0x00, 0x08, 0x00, 0x0c, 0x00, 0x10, 0x00, 0x0c, 0x00, 0x00, 0x00,
  0x3c, 0x01, 0x00, 0x00, 0x30, 0x01, 0x00, 0x00, 0x24, 0x01, 0x00, 0x00,
  0x04, 0x00, 0x00, 0x00, 0x04, 0x00, 0x00, 0x00, 0xdc, 0x00, 0x00, 0x00,
  0x94, 0x00, 0x00, 0x00, 0x50, 0x00, 0x00, 0x00, 0x14, 0x00, 0x00, 0x00,
  0x00, 0x00, 0x0e, 0x00, 0x1a, 0x00, 0x08, 0x00, 0x0c, 0x00, 0x10, 0x00,
  0x07, 0x00, 0x14, 0x00, 0x0e, 0x00, 0x00, 0x00, 0x00, 0x00, 0x00, 0x09,
  0x01, 0x00, 0x00, 0x00, 0x24, 0x00, 0x00, 0x00, 0x18, 0x00, 0x00, 0x00,
  0x0c, 0x00, 0x00, 0x00, 0x00, 0x00, 0x06, 0x00, 0x08, 0x00, 0x04, 0x00,
  0x06, 0x00, 0x00, 0x00, 0x00, 0x00, 0x80, 0x3f, 0x01, 0x00, 0x00, 0x00,
  0x00, 0x00, 0x00, 0x00, 0x01, 0x00, 0x00, 0x00, 0x08, 0x00, 0x00, 0x00,
  0xce, 0xff, 0xff, 0xff, 0x00, 0x00, 0x00, 0x08, 0x18, 0x00, 0x00, 0x00,
  0x0c, 0x00, 0x00, 0x00, 0x04, 0x00, 0x00, 0x00, 0xfc, 0xfb, 0xff, 0xff,
  0x01, 0x00, 0x00, 0x00, 0x08, 0x00, 0x00, 0x00, 0x03, 0x00, 0x00, 0x00,
  0x07, 0x00, 0x00, 0x00, 0x09, 0x00, 0x00, 0x00, 0x0a, 0x00, 0x00, 0x00,
  0x00, 0x00, 0x0e, 0x00, 0x14, 0x00, 0x00, 0x00, 0x08, 0x00, 0x0c, 0x00,
  0x07, 0x00, 0x10, 0x00, 0x0e, 0x00, 0x00, 0x00, 0x00, 0x00, 0x00, 0x08,
  0x1c, 0x00, 0x00, 0x00, 0x10, 0x00, 0x00, 0x00, 0x04, 0x00, 0x00, 0x00,
  0xba, 0xff, 0xff, 0xff, 0x00, 0x00, 0x00, 0x01, 0x01, 0x00, 0x00, 0x00,
  0x07, 0x00, 0x00, 0x00, 0x03, 0x00, 0x00, 0x00, 0x04, 0x00, 0x00, 0x00,
  0x05, 0x00, 0x00, 0x00, 0x06, 0x00, 0x00, 0x00, 0x00, 0x00, 0x0e, 0x00,
  0x16, 0x00, 0x00, 0x00, 0x08, 0x00, 0x0c, 0x00, 0x07, 0x00, 0x10, 0x00,
  0x0e, 0x00, 0x00, 0x00, 0x00, 0x00, 0x00, 0x08, 0x24, 0x00, 0x00, 0x00,
  0x18, 0x00, 0x00, 0x00, 0x0c, 0x00, 0x00, 0x00, 0x00, 0x00, 0x06, 0x00,
  0x08, 0x00, 0x07, 0x00, 0x06, 0x00, 0x00, 0x00, 0x00, 0x00, 0x00, 0x01,
  0x01, 0x00, 0x00, 0x00, 0x04, 0x00, 0x00, 0x00, 0x03, 0x00, 0x00, 0x00,
  0x01, 0x00, 0x00, 0x00, 0x02, 0x00, 0x00, 0x00, 0x03, 0x00, 0x00, 0x00,
  0x01, 0x00, 0x00, 0x00, 0x00, 0x00, 0x00, 0x00, 0x01, 0x00, 0x00, 0x00,
  0x01, 0x00, 0x00, 0x00, 0x0b, 0x00, 0x00, 0x00, 0x30, 0x03, 0x00, 0x00,
  0xcc, 0x02, 0x00, 0x00, 0x6c, 0x02, 0x00, 0x00, 0x24, 0x02, 0x00, 0x00,
  0xe0, 0x01, 0x00, 0x00, 0x80, 0x01, 0x00, 0x00, 0x38, 0x01, 0x00, 0x00,
  0xf4, 0x00, 0x00, 0x00, 0xac, 0x00, 0x00, 0x00, 0x4c, 0x00, 0x00, 0x00,
  0x04, 0x00, 0x00, 0x00, 0x0a, 0xfd, 0xff, 0xff, 0x38, 0x00, 0x00, 0x00,
  0x02, 0x00, 0x00, 0x00, 0x0c, 0x00, 0x00, 0x00, 0x04, 0x00, 0x00, 0x00,
  0xfc, 0xfc, 0xff, 0xff, 0x1e, 0x00, 0x00, 0x00, 0x73, 0x65, 0x71, 0x75,
  0x65, 0x6e, 0x74, 0x69, 0x61, 0x6c, 0x2f, 0x64, 0x65, 0x6e, 0x73, 0x65,
  0x5f, 0x32, 0x2f, 0x4d, 0x61, 0x74, 0x4d, 0x75, 0x6c, 0x5f, 0x62, 0x69,
  0x61, 0x73, 0x00, 0x00, 0x01, 0x00, 0x00, 0x00, 0x03, 0x00, 0x00, 0x00,
  0x4e, 0xfd, 0xff, 0xff, 0x4c, 0x00, 0x00, 0x00, 0x01, 0x00, 0x00, 0x00,
  0x0c, 0x00, 0x00, 0x00, 0x04, 0x00, 0x00, 0x00, 0x40, 0xfd, 0xff, 0xff,
  0x32, 0x00, 0x00, 0x00, 0x73, 0x65, 0x71, 0x75, 0x65, 0x6e, 0x74, 0x69,
  0x61, 0x6c, 0x2f, 0x64, 0x65, 0x6e, 0x73, 0x65, 0x5f, 0x32, 0x2f, 0x4d,
  0x61, 0x74, 0x4d, 0x75, 0x6c, 0x2f, 0x52, 0x65, 0x61, 0x64, 0x56, 0x61,
  0x72, 0x69, 0x61, 0x62, 0x6c, 0x65, 0x4f, 0x70, 0x2f, 0x74, 0x72, 0x61,
  0x6e, 0x73, 0x70, 0x6f, 0x73, 0x65, 0x00, 0x00, 0x02, 0x00, 0x00, 0x00,
  0x03, 0x00, 0x00, 0x00, 0x10, 0x00, 0x00, 0x00, 0xaa, 0xfd, 0xff, 0xff,
  0x34, 0x00, 0x00, 0x00, 0x07, 0x00, 0x00, 0x00, 0x0c, 0x00, 0x00, 0x00,
  0x04, 0x00, 0x00, 0x00, 0x9c, 0xfd, 0xff, 0xff, 0x1a, 0x00, 0x00, 0x00,
  0x73, 0x65, 0x71, 0x75, 0x65, 0x6e, 0x74, 0x69, 0x61, 0x6c, 0x2f, 0x64,
  0x65, 0x6e, 0x73, 0x65, 0x5f, 0x32, 0x2f, 0x42, 0x69, 0x61, 0x73, 0x41,
  0x64, 0x64, 0x00, 0x00, 0x02, 0x00, 0x00, 0x00, 0x01, 0x00, 0x00, 0x00,
  0x03, 0x00, 0x00, 0x00, 0xee, 0xfd, 0xff, 0xff, 0x30, 0x00, 0x00, 0x00,
  0x0b, 0x00, 0x00, 0x00, 0x0c, 0x00, 0x00, 0x00, 0x04, 0x00, 0x00, 0x00,
  0xe0, 0xfd, 0xff, 0xff, 0x17, 0x00, 0x00, 0x00, 0x73, 0x65, 0x71, 0x75,
  0x65, 0x6e, 0x74, 0x69, 0x61, 0x6c, 0x2f, 0x64, 0x65, 0x6e, 0x73, 0x65,
  0x5f, 0x31, 0x2f, 0x52, 0x65, 0x6c, 0x75, 0x00, 0x02, 0x00, 0x00, 0x00,
  0x01, 0x00, 0x00, 0x00, 0x10, 0x00, 0x00, 0x00, 0x2e, 0xfe, 0xff, 0xff,
  0x38, 0x00, 0x00, 0x00, 0x03, 0x00, 0x00, 0x00, 0x0c, 0x00, 0x00, 0x00,
  0x04, 0x00, 0x00, 0x00, 0x20, 0xfe, 0xff, 0xff, 0x1e, 0x00, 0x00, 0x00,
  0x73, 0x65, 0x71, 0x75, 0x65, 0x6e, 0x74, 0x69, 0x61, 0x6c, 0x2f, 0x64,
  0x65, 0x6e, 0x73, 0x65, 0x5f, 0x31, 0x2f, 0x4d, 0x61, 0x74, 0x4d, 0x75,
  0x6c, 0x5f, 0x62, 0x69, 0x61, 0x73, 0x00, 0x00, 0x01, 0x00, 0x00, 0x00,
  0x10, 0x00, 0x00, 0x00, 0x72, 0xfe, 0xff, 0xff, 0x4c, 0x00, 0x00, 0x00,
  0x04, 0x00, 0x00, 0x00, 0x0c, 0x00, 0x00, 0x00, 0x04, 0x00, 0x00, 0x00,
  0x64, 0xfe, 0xff, 0xff, 0x32, 0x00, 0x00, 0x00, 0x73, 0x65, 0x71, 0x75,
  0x65, 0x6e, 0x74, 0x69, 0x61, 0x6c, 0x2f, 0x64, 0x65, 0x6e, 0x73, 0x65,
  0x5f, 0x31, 0x2f, 0x4d, 0x61, 0x74, 0x4d, 0x75, 0x6c, 0x2f, 0x52, 0x65,
  0x61, 0x64, 0x56, 0x61, 0x72, 0x69, 0x61, 0x62, 0x6c, 0x65, 0x4f, 0x70,
  0x2f, 0x74, 0x72, 0x61, 0x6e, 0x73, 0x70, 0x6f, 0x73, 0x65, 0x00, 0x00,
  0x02, 0x00, 0x00, 0x00, 0x10, 0x00, 0x00, 0x00, 0x10, 0x00, 0x00, 0x00,
  0xce, 0xfe, 0xff, 0xff, 0x30, 0x00, 0x00, 0x00, 0x08, 0x00, 0x00, 0x00,
  0x0c, 0x00, 0x00, 0x00, 0x04, 0x00, 0x00, 0x00, 0xc0, 0xfe, 0xff, 0xff,
  0x15, 0x00, 0x00, 0x00, 0x73, 0x65, 0x71, 0x75, 0x65, 0x6e, 0x74, 0x69,
  0x61, 0x6c, 0x2f, 0x64, 0x65, 0x6e, 0x73, 0x65, 0x2f, 0x52, 0x65, 0x6c,
  0x75, 0x00, 0x00, 0x00, 0x02, 0x00, 0x00, 0x00, 0x01, 0x00, 0x00, 0x00,
  0x10, 0x00, 0x00, 0x00, 0x0e, 0xff, 0xff, 0xff, 0x38, 0x00, 0x00, 0x00,
  0x05, 0x00, 0x00, 0x00, 0x0c, 0x00, 0x00, 0x00, 0x04, 0x00, 0x00, 0x00,
  0x00, 0xff, 0xff, 0xff, 0x1c, 0x00, 0x00, 0x00, 0x73, 0x65, 0x71, 0x75,
  0x65, 0x6e, 0x74, 0x69, 0x61, 0x6c, 0x2f, 0x64, 0x65, 0x6e, 0x73, 0x65,
  0x2f, 0x4d, 0x61, 0x74, 0x4d, 0x75, 0x6c, 0x5f, 0x62, 0x69, 0x61, 0x73,
  0x00, 0x00, 0x00, 0x00, 0x01, 0x00, 0x00, 0x00, 0x10, 0x00, 0x00, 0x00,
  0x52, 0xff, 0xff, 0xff, 0x4c, 0x00, 0x00, 0x00, 0x09, 0x00, 0x00, 0x00,
  0x0c, 0x00, 0x00, 0x00, 0x04, 0x00, 0x00, 0x00, 0x44, 0xff, 0xff, 0xff,
  0x30, 0x00, 0x00, 0x00, 0x73, 0x65, 0x71, 0x75, 0x65, 0x6e, 0x74, 0x69,
  0x61, 0x6c, 0x2f, 0x64, 0x65, 0x6e, 0x73, 0x65, 0x2f, 0x4d, 0x61, 0x74,
  0x4d, 0x75, 0x6c, 0x2f, 0x52, 0x65, 0x61, 0x64, 0x56, 0x61, 0x72, 0x69,
  0x61, 0x62, 0x6c, 0x65, 0x4f, 0x70, 0x2f, 0x74, 0x72, 0x61, 0x6e, 0x73,
  0x70, 0x6f, 0x73, 0x65, 0x00, 0x00, 0x00, 0x00, 0x02, 0x00, 0x00, 0x00,
  0x10, 0x00, 0x00, 0x00, 0x02, 0x00, 0x00, 0x00, 0xae, 0xff, 0xff, 0xff,
  0x40, 0x00, 0x00, 0x00, 0x06, 0x00, 0x00, 0x00, 0x2c, 0x00, 0x00, 0x00,
  0x0c, 0x00, 0x00, 0x00, 0x08, 0x00, 0x0c, 0x00, 0x04, 0x00, 0x08, 0x00,
  0x08, 0x00, 0x00, 0x00, 0x10, 0x00, 0x00, 0x00, 0x04, 0x00, 0x00, 0x00,
  0x01, 0x00, 0x00, 0x00, 0x00, 0x00, 0x7f, 0x43, 0x01, 0x00, 0x00, 0x00,
  0x00, 0x00, 0x00, 0x00, 0x07, 0x00, 0x00, 0x00, 0x69, 0x6e, 0x70, 0x75,
  0x74, 0x5f, 0x31, 0x00, 0x02, 0x00, 0x00, 0x00, 0x01, 0x00, 0x00, 0x00,
  0x02, 0x00, 0x00, 0x00, 0x00, 0x00, 0x0e, 0x00, 0x14, 0x00, 0x04, 0x00,
  0x00, 0x00, 0x08, 0x00, 0x0c, 0x00, 0x10, 0x00, 0x0e, 0x00, 0x00, 0x00,
  0x28, 0x00, 0x00, 0x00, 0x0a, 0x00, 0x00, 0x00, 0x10, 0x00, 0x00, 0x00,
  0x08, 0x00, 0x00, 0x00, 0x04, 0x00, 0x04, 0x00, 0x04, 0x00, 0x00, 0x00,
  0x08, 0x00, 0x00, 0x00, 0x49, 0x64, 0x65, 0x6e, 0x74, 0x69, 0x74, 0x79,
  0x00, 0x00, 0x00, 0x00, 0x02, 0x00, 0x00, 0x00, 0x01, 0x00, 0x00, 0x00,
  0x03, 0x00, 0x00, 0x00, 0x02, 0x00, 0x00, 0x00, 0x20, 0x00, 0x00, 0x00,
  0x0c, 0x00, 0x00, 0x00, 0x00, 0x00, 0x06, 0x00, 0x06, 0x00, 0x05, 0x00,
  0x06, 0x00, 0x00, 0x00, 0x00, 0x19, 0x0a, 0x00, 0x0c, 0x00, 0x07, 0x00,
  0x00, 0x00, 0x08, 0x00, 0x0a, 0x00, 0x00, 0x00, 0x00, 0x00, 0x00, 0x09,
  0x03, 0x00, 0x00, 0x00
};
unsigned int model_tflite_len = 3040;
